{
  "version": "1.0",
  "truncation": null,
  "padding": null,
  "added_tokens": [
    {
      "id": 0,
      "content": "<|endoftext|>",
      "single_word": false,
      "lstrip": false,
      "rstrip": false,
      "normalized": false,
      "special": true
    },
    {
      "id": 1,
      "content": "[UNK]",
      "single_word": false,
      "lstrip": false,
      "rstrip": false,
      "normalized": false,
      "special": true
    },
    {
      "id": 2,
      "content": "<OBSERVE>",
      "single_word": false,
      "lstrip": false,
      "rstrip": false,
      "normalized": false,
      "special": true
    },
    {
      "id": 3,
      "content": "</OBSERVE>",
      "single_word": false,
      "lstrip": false,
      "rstrip": false,
      "normalized": false,
      "special": true
    },
    {
      "id": 4,
      "content": "<THINK>",
      "single_word": false,
      "lstrip": false,
      "rstrip": false,
      "normalized": false,
      "special": true
    },
    {
      "id": 5,
      "content": "</THINK>",
      "single_word": false,
      "lstrip": false,
      "rstrip": false,
      "normalized": false,
      "special": true
    },
    {
      "id": 6,
      "content": "<ACT>",
      "single_word": false,
      "lstrip": false,
      "rstrip": false,
      "normalized": false,
      "special": true
    },
    {
      "id": 7,
      "content": "</ACT>",
      "single_word": false,
      "lstrip": false,
      "rstrip": false,
      "normalized": false,
      "special": true
    },
    {
      "id": 8,
      "content": "<SUCCESS>",
      "single_word": false,
      "lstrip": false,
      "rstrip": false,
      "normalized": false,
      "special": true
    },
    {
      "id": 9,
      "content": "<ERROR>",
      "single_word": false,
      "lstrip": false,
      "rstrip": false,
      "normalized": false,
      "special": true
    }
  ],
  "normalizer": null,
  "pre_tokenizer": {
    "type": "Whitespace"
  },
  "post_processor": null,
  "decoder": null,
  "model": {
    "type": "BPE",
    "dropout": null,
    "unk_token": "[UNK]",
    "continuing_subword_prefix": null,
    "end_of_word_suffix": null,
    "fuse_unk": false,
    "byte_fallback": false,
    "ignore_merges": false,
    "vocab": {
      "<|endoftext|>": 0,
      "[UNK]": 1,
      "<OBSERVE>": 2,
      "</OBSERVE>": 3,
      "<THINK>": 4,
      "</THINK>": 5,
      "<ACT>": 6,
      "</ACT>": 7,
      "<SUCCESS>": 8,
      "<ERROR>": 9,
      "'": 10,
      "(": 11,
      ")": 12,
      ",": 13,
      ".": 14,
      "/": 15,
      "0": 16,
      "1": 17,
      "2": 18,
      "3": 19,
      "4": 20,
      "5": 21,
      "6": 22,
      "7": 23,
      "8": 24,
      "9": 25,
      ":": 26,
      "<": 27,
      ">": 28,
      "A": 29,
      "B": 30,
      "C": 31,
      "D": 32,
      "E": 33,
      "F": 34,
      "G": 35,
      "H": 36,
      "I": 37,
      "K": 38,
      "L": 39,
      "M": 40,
      "N": 41,
      "O": 42,
      "P": 43,
      "R": 44,
      "S": 45,
      "T": 46,
      "V": 47,
      "W": 48,
      "X": 49,
      "[": 50,
      "]": 51,
      "_": 52,
      "a": 53,
      "b": 54,
      "c": 55,
      "d": 56,
      "e": 57,
      "f": 58,
      "g": 59,
      "h": 60,
      "i": 61,
      "j": 62,
      "k": 63,
      "l": 64,
      "m": 65,
      "n": 66,
      "o": 67,
      "p": 68,
      "q": 69,
      "r": 70,
      "s": 71,
      "t": 72,
      "u": 73,
      "v": 74,
      "x": 75,
      "y": 76,
      "|": 77,
      "te": 78,
      "is": 79,
      "th": 80,
      "on": 81,
      "nd": 82,
      "</": 83,
      "nt": 84,
      "VE": 85,
      "tes": 86,
      "of": 87,
      "me": 88,
      "ic": 89,
      "le": 90,
      "ER": 91,
      "this": 92,
      "the": 93,
      "AC": 94,
      "BS": 95,
      "HI": 96,
      "NK": 97,
      "OBS": 98,
      "THI": 99,
      "ile": 100,
      "ERVE": 101,
      "ACT": 102,
      "OBSERVE": 103,
      "THINK": 104,
      "Con": 105,
      "nv": 106,
      "tent": 107,
      "Content": 108,
      "do": 109,
      "in": 110,
      "lo": 111,
      "log": 112,
      "and": 113,
      "test": 114,
      "er": 115,
      "doc": 116,
      "tem": 117,
      "xt": 118,
      "ls": 119,
      "he": 120,
      "qu": 121,
      "ick": 122,
      "quick": 123,
      "sy": 124,
      "stem": 125,
      "system": 126,
      "ir": 127,
      "logs": 128,
      "di": 129,
      "medi": 130,
      "media": 131,
      "docs": 132,
      "rc": 133,
      "src": 134,
      "ment": 135,
      "'.": 136,
      "<|": 137,
      "Env": 138,
      "File": 139,
      "[/": 140,
      "].": 141,
      "_ls": 142,
      "ex": 143,
      "end": 144,
      "file": 145,
      "|>": 146,
      "text": 147,
      "oftext": 148,
      "Env_ls": 149,
      "endoftext": 150,
      "ta": 151,
      "ol": 152,
      "ca": 153,
      "..": 154,
      "st": 155,
      "ates": 156,
      "der": 157,
      "env": 158,
      "fol": 159,
      "ind": 160,
      "ist": 161,
      "onment": 162,
      "icates": 163,
      "ironment": 164,
      "exist": 165,
      "environment": 166,
      "folder": 167,
      "indicates": 168,
      "ata": 169,
      "data": 170,
      "no": 171,
      "ck": 172,
      "ge": 173,
      "It": 174,
      "not": 175,
      "ar": 176,
      "ba": 177,
      "ing": 178,
      "es": 179,
      "re": 180,
      "de": 181,
      "che": 182,
      "cache": 183,
      "el": 184,
      "con": 185,
      "ig": 186,
      "Che": 187,
      "DI": 188,
      "KDI": 189,
      "MKDI": 190,
      "ate": 191,
      "bel": 192,
      "cre": 193,
      "fir": 194,
      "gs": 195,
      "mu": 196,
      "ongs": 197,
      "does": 198,
      "...": 199,
      "cking": 200,
      "Checking": 201,
      "MKDIR": 202,
      "belongs": 203,
      "create": 204,
      "first": 205,
      "must": 206,
      "MO": 207,
      "The": 208,
      "Tar": 209,
      "it": 210,
      "mo": 211,
      "ve": 212,
      "can": 213,
      "exists": 214,
      "get": 215,
      "MOVE": 216,
      "Target": 217,
      "move": 218,
      "p_": 219,
      "ser": 220,
      "mp": 221,
      "ion": 222,
      "back": 223,
      "ma": 224,
      "txt": 225,
      "co": 226,
      "ee": 227,
      "ha": 228,
      "un": 229,
      "backu": 230,
      "ra": 231,
      "tmp": 232,
      "ima": 233,
      "image": 234,
      "ument": 235,
      "document": 236,
      "code": 237,
      "DE": 238,
      "ET": 239,
      "LET": 240,
      "Th": 241,
      "als": 242,
      "jun": 243,
      "ns": 244,
      "nee": 245,
      "nals": 246,
      "sig": 247,
      "tens": 248,
      "ins": 249,
      "extens": 250,
      "tains": 251,
      "ded": 252,
      "contains": 253,
      "has": 254,
      "DELET": 255,
      "This": 256,
      "junk": 257,
      "needed": 258,
      "signals": 259,
      "extension": 260,
      "DELETE": 261,
      "bak": 262,
      "ap": 263,
      "app_": 264,
      "dra": 265,
      "ft": 266,
      "draft": 267,
      "draft_": 268,
      "test_": 269,
      "user": 270,
      "user_": 271,
      "fig": 272,
      "config": 273,
      "config_": 274,
      "data_": 275,
      "backup_": 276,
      "ver": 277,
      "server": 278,
      "server_": 279,
      "al": 280,
      "fin": 281,
      "al_": 282,
      "final_": 283,
      "ng": 284,
      "png": 285,
      "jp": 286,
      "jpg": 287,
      "df": 288,
      "pdf": 289,
      "py": 290,
      "md": 291,
      "tion": 292,
      "()": 293,
      "js": 294,
      "pte": 295,
      "ht": 296,
      "ml": 297,
      "html": 298,
      "92": 299,
      "80": 300,
      "10": 301,
      "Mee": 302,
      "ting": 303,
      "notes": 304,
      "Meeting": 305,
      "Pi": 306,
      "els": 307,
      "xels": 308,
      "Pixels": 309,
      "Data": 310,
      "EX": 311,
      "IF": 312,
      "EXIF": 313,
      "0x": 314,
      "192": 315,
      "Res": 316,
      "ution": 317,
      "olution": 318,
      "1080": 319,
      "0x1080": 320,
      "1920x1080": 321,
      "Resolution": 322,
      "def": 323,
      "main": 324,
      "():": 325,
      "Su": 326,
      "mm": 327,
      "ary": 328,
      "Summ": 329,
      "Summary": 330,
      "ole": 331,
      "sole": 332,
      "console": 333,
      "du": 334,
      "dump": 335,
      "Cha": 336,
      "pter": 337,
      "Chapter": 338,
      "imp": 339,
      "or": 340,
      "os": 341,
      "impor": 342,
      "import": 343,
      "nore": 344,
      "ignore": 345,
      "GB": 346,
      "RGB": 347,
      "De": 348,
      "am": 349,
      "team": 350,
      "Dear": 351,
      "ction": 352,
      "fun": 353,
      "function": 354,
      "rr": 355,
      "upte": 356,
      "corr": 357,
      "backup": 358,
      "upted": 359,
      "corrupted": 360,
      "temp": 361,
      "OR": 362,
      "ROR": 363,
      "ERROR": 364,
      "ime": 365,
      "ou": 366,
      "time": 367,
      "out": 368,
      "timeout": 369,
      "an": 370,
      "ker": 371,
      "nel": 372,
      "pan": 373,
      "kernel": 374,
      "panic": 375,
      "Tra": 376,
      "ce": 377,
      "Trace": 378,
      "Traceback": 379,
      "AR": 380,
      "WAR": 381,
      "WARN": 382,
      "user_4": 383,
      "app_6": 384,
      "backup_2": 385,
      "config_5": 386,
      "final_7": 387,
      "app_3": 388,
      "draft_4": 389,
      "data_2": 390,
      "final_6": 391,
      "draft_2": 392,
      "config_4": 393,
      "user_2": 394,
      "data_4": 395,
      "data_5": 396,
      "draft_3": 397,
      "backup_4": 398,
      "app_4": 399,
      "backup_6": 400,
      "server_5": 401,
      "user_7": 402,
      "test_4": 403,
      "draft_6": 404,
      "app_7": 405,
      "data_6": 406,
      "test_6": 407,
      "user_3": 408,
      "server_3": 409,
      "backup_7": 410,
      "test_7": 411,
      "server_4": 412,
      "final_5": 413,
      "config_6": 414,
      "app_2": 415,
      "server_7": 416,
      "test_3": 417,
      "test_2": 418,
      "backup_5": 419,
      "test_5": 420,
      "config_7": 421,
      "config_2": 422,
      "draft_5": 423,
      "server_6": 424,
      "config_3": 425,
      "app_5": 426,
      "backup_3": 427,
      "final_3": 428,
      "data_7": 429,
      "final_4": 430,
      "data_3": 431,
      "draft_7": 432,
      "user_6": 433,
      "final_2": 434,
      "app_1": 435,
      "user_1": 436,
      "server_2": 437,
      "draft_8": 438,
      "user_5": 439,
      "server_1": 440,
      "config_8": 441,
      "config_1": 442,
      "test_8": 443,
      "test_9": 444,
      "user_8": 445,
      "test_1": 446,
      "data_9": 447,
      "draft_1": 448,
      "app_8": 449,
      "draft_9": 450,
      "data_8": 451,
      "final_9": 452,
      "user_9": 453,
      "final_1": 454,
      "config_9": 455,
      "data_1": 456,
      "server_9": 457,
      "backup_1": 458,
      "backup_8": 459,
      "app_9": 460,
      "server_8": 461,
      "final_8": 462,
      "backup_9": 463,
      "app_78": 464,
      "config_71": 465,
      "draft_95": 466,
      "user_28": 467,
      "server_31": 468,
      "test_13": 469,
      "config_82": 470,
      "config_83": 471,
      "user_35": 472,
      "user_87": 473,
      "final_86": 474,
      "final_75": 475,
      "backup_40": 476,
      "draft_99": 477,
      "user_20": 478,
      "data_28": 479,
      "draft_82": 480,
      "user_83": 481,
      "app_41": 482,
      "config_97": 483,
      "data_59": 484,
      "user_73": 485,
      "server_11": 486,
      "data_98": 487,
      "final_18": 488,
      "test_92": 489,
      "app_67": 490,
      "draft_46": 491,
      "draft_26": 492,
      "backup_66": 493,
      "app_81": 494,
      "final_73": 495,
      "data_46": 496,
      "app_18": 497,
      "test_90": 498,
      "draft_14": 499,
      "user_43": 500,
      "app_64": 501,
      "draft_34": 502,
      "server_42": 503,
      "app_29": 504,
      "test_95": 505,
      "final_80": 506,
      "user_48": 507,
      "user_49": 508,
      "backup_26": 509,
      "user_74": 510,
      "test_71": 511,
      "test_35": 512,
      "app_12": 513,
      "data_81": 514,
      "final_67": 515,
      "draft_21": 516,
      "data_52": 517,
      "backup_73": 518,
      "user_19": 519,
      "test_86": 520,
      "user_86": 521,
      "server_84": 522,
      "backup_25": 523,
      "user_70": 524,
      "server_40": 525,
      "test_53": 526,
      "test_89": 527,
      "draft_18": 528,
      "app_84": 529,
      "config_10": 530,
      "backup_28": 531,
      "config_58": 532,
      "data_45": 533,
      "test_41": 534,
      "server_43": 535,
      "test_38": 536,
      "config_32": 537,
      "user_16": 538,
      "config_54": 539,
      "user_26": 540,
      "data_62": 541,
      "config_68": 542,
      "user_92": 543,
      "backup_10": 544,
      "backup_22": 545,
      "final_72": 546,
      "app_36": 547,
      "user_27": 548,
      "draft_35": 549,
      "test_79": 550,
      "backup_51": 551,
      "backup_96": 552,
      "final_65": 553,
      "data_42": 554,
      "data_51": 555,
      "data_56": 556,
      "backup_45": 557,
      "backup_52": 558,
      "app_55": 559,
      "final_26": 560,
      "app_19": 561,
      "draft_85": 562,
      "server_16": 563,
      "draft_16": 564,
      "backup_82": 565,
      "user_45": 566,
      "app_30": 567,
      "draft_44": 568,
      "final_50": 569,
      "config_31": 570,
      "final_38": 571,
      "app_13": 572,
      "server_27": 573,
      "config_18": 574,
      "final_99": 575,
      "user_95": 576,
      "backup_15": 577,
      "app_91": 578,
      "app_31": 579,
      "draft_49": 580,
      "draft_29": 581,
      "config_45": 582,
      "config_46": 583,
      "server_58": 584,
      "test_46": 585,
      "app_72": 586,
      "server_33": 587,
      "config_28": 588,
      "app_11": 589,
      "user_17": 590,
      "server_15": 591,
      "test_16": 592,
      "backup_18": 593,
      "app_66": 594,
      "draft_40": 595,
      "test_45": 596,
      "test_67": 597,
      "config_66": 598,
      "app_27": 599,
      "test_25": 600,
      "draft_55": 601,
      "data_76": 602,
      "draft_83": 603,
      "draft_96": 604,
      "data_17": 605,
      "server_93": 606,
      "server_92": 607,
      "user_42": 608,
      "draft_41": 609,
      "test_39": 610,
      "final_35": 611,
      "server_80": 612,
      "backup_27": 613,
      "app_33": 614,
      "data_47": 615,
      "backup_64": 616,
      "server_59": 617,
      "test_44": 618,
      "app_54": 619,
      "final_37": 620,
      "data_37": 621,
      "user_13": 622,
      "config_84": 623,
      "data_91": 624,
      "data_93": 625,
      "user_90": 626,
      "draft_24": 627,
      "server_53": 628,
      "test_48": 629,
      "user_36": 630,
      "user_37": 631,
      "server_49": 632,
      "user_18": 633,
      "final_13": 634,
      "final_10": 635,
      "user_46": 636,
      "app_68": 637,
      "app_38": 638,
      "draft_45": 639,
      "server_50": 640,
      "backup_79": 641,
      "test_75": 642,
      "final_51": 643,
      "server_74": 644,
      "test_52": 645,
      "server_22": 646,
      "draft_88": 647,
      "test_82": 648,
      "final_90": 649,
      "app_92": 650,
      "draft_92": 651,
      "draft_27": 652,
      "config_40": 653,
      "config_42": 654,
      "backup_43": 655,
      "user_72": 656,
      "draft_60": 657,
      "data_69": 658,
      "test_77": 659,
      "app_20": 660,
      "test_34": 661,
      "config_72": 662,
      "user_62": 663,
      "draft_80": 664,
      "test_10": 665,
      "user_80": 666,
      "final_70": 667,
      "draft_33": 668,
      "backup_61": 669,
      "backup_67": 670,
      "draft_62": 671,
      "data_61": 672,
      "data_68": 673,
      "backup_77": 674,
      "backup_54": 675,
      "draft_58": 676,
      "server_68": 677,
      "draft_75": 678,
      "user_12": 679,
      "config_11": 680,
      "test_84": 681,
      "data_97": 682,
      "app_87": 683,
      "data_86": 684,
      "backup_94": 685,
      "user_47": 686,
      "app_35": 687,
      "data_23": 688,
      "final_66": 689,
      "config_47": 690,
      "app_43": 691,
      "test_47": 692,
      "draft_66": 693,
      "data_79": 694,
      "data_32": 695,
      "config_19": 696,
      "test_97": 697,
      "test_19": 698,
      "app_85": 699,
      "final_95": 700,
      "backup_20": 701,
      "config_59": 702,
      "final_78": 703,
      "data_26": 704,
      "draft_38": 705,
      "server_55": 706,
      "draft_61": 707,
      "server_75": 708,
      "draft_51": 709,
      "draft_56": 710,
      "draft_72": 711,
      "final_28": 712,
      "app_14": 713,
      "user_56": 714,
      "draft_11": 715,
      "draft_91": 716,
      "data_87": 717,
      "final_17": 718,
      "config_94": 719,
      "backup_17": 720,
      "backup_89": 721,
      "server_89": 722,
      "config_50": 723,
      "data_24": 724,
      "data_25": 725,
      "data_48": 726,
      "user_71": 727,
      "final_54": 728,
      "test_30": 729,
      "test_28": 730,
      "config_33": 731,
      "draft_71": 732,
      "server_19": 733,
      "config_14": 734,
      "user_93": 735,
      "user_97": 736,
      "data_11": 737,
      "app_65": 738,
      "backup_44": 739,
      "app_75": 740,
      "server_34": 741,
      "server_72": 742,
      "app_58": 743,
      "data_78": 744,
      "final_40": 745,
      "data_33": 746,
      "config_16": 747,
      "test_81": 748,
      "user_94": 749,
      "backup_90": 750,
      "final_74": 751,
      "app_34": 752,
      "app_40": 753,
      "app_76": 754,
      "test_62": 755,
      "server_38": 756,
      "backup_74": 757,
      "final_53": 758,
      "config_23": 759,
      "config_26": 760,
      "config_39": 761,
      "user_63": 762,
      "draft_81": 763,
      "server_13": 764,
      "test_87": 765,
      "test_99": 766,
      "draft_90": 767,
      "config_96": 768,
      "backup_16": 769,
      "config_55": 770,
      "final_69": 771,
      "config_49": 772,
      "draft_36": 773,
      "app_42": 774,
      "test_60": 775,
      "server_32": 776,
      "server_73": 777,
      "config_20": 778,
      "config_38": 779,
      "final_33": 780,
      "data_34": 781,
      "app_15": 782,
      "draft_84": 783,
      "test_14": 784,
      "final_97": 785,
      "data_18": 786,
      "server_91": 787,
      "app_99": 788,
      "final_87": 789,
      "config_56": 790,
      "data_29": 791,
      "final_63": 792,
      "test_40": 793,
      "draft_68": 794,
      "test_64": 795,
      "test_70": 796,
      "config_60": 797,
      "app_22": 798,
      "app_25": 799,
      "test_50": 800,
      "draft_59": 801,
      "data_75": 802,
      "draft_74": 803,
      "config_88": 804,
      "final_15": 805,
      "server_95": 806,
      "backup_87": 807,
      "app_93": 808,
      "server_81": 809,
      "test_80": 810,
      "final_61": 811,
      "data_44": 812,
      "app_46": 813,
      "backup_69": 814,
      "app_79": 815,
      "data_65": 816,
      "test_65": 817,
      "user_34": 818,
      "server_41": 819,
      "backup_57": 820,
      "test_59": 821,
      "config_76": 822,
      "server_66": 823,
      "backup_39": 824,
      "user_11": 825,
      "data_85": 826,
      "final_91": 827,
      "server_98": 828,
      "data_92": 829,
      "backup_92": 830,
      "config_57": 831,
      "app_32": 832,
      "test_66": 833,
      "final_59": 834,
      "config_29": 835,
      "draft_54": 836,
      "backup_30": 837,
      "backup_36": 838,
      "final_49": 839,
      "final_24": 840,
      "test_85": 841,
      "test_88": 842,
      "user_88": 843,
      "data_14": 844,
      "server_10": 845,
      "final_62": 846,
      "draft_31": 847,
      "backup_41": 848,
      "backup_47": 849,
      "app_45": 850,
      "user_77": 851,
      "user_78": 852,
      "data_66": 853,
      "test_68": 854,
      "user_31": 855,
      "config_63": 856,
      "server_62": 857,
      "app_51": 858,
      "user_68": 859,
      "server_28": 860,
      "draft_87": 861,
      "final_98": 862,
      "backup_80": 863,
      "app_61": 864,
      "app_62": 865,
      "config_51": 866,
      "config_53": 867,
      "final_68": 868,
      "draft_23": 869,
      "config_41": 870,
      "data_50": 871,
      "server_52": 872,
      "server_56": 873,
      "server_35": 874,
      "backup_75": 875,
      "test_31": 876,
      "test_22": 877,
      "test_29": 878,
      "test_54": 879,
      "backup_38": 880,
      "user_51": 881,
      "user_57": 882,
      "user_81": 883,
      "data_96": 884,
      "draft_19": 885,
      "user_99": 886,
      "config_80": 887,
      "app_60": 888,
      "draft_22": 889,
      "draft_25": 890,
      "server_57": 891,
      "server_71": 892,
      "test_24": 893,
      "backup_55": 894,
      "backup_59": 895,
      "config_24": 896,
      "config_27": 897,
      "draft_50": 898,
      "server_60": 899,
      "app_53": 900,
      "data_35": 901,
      "user_53": 902,
      "user_89": 903,
      "test_11": 904,
      "data_95": 905,
      "data_84": 906,
      "config_95": 907,
      "server_96": 908,
      "server_97": 909,
      "final_83": 910,
      "data_22": 911,
      "data_41": 912,
      "backup_63": 913,
      "draft_63": 914,
      "server_78": 915,
      "config_79": 916,
      "server_65": 917,
      "final_48": 918,
      "app_16": 919,
      "config_17": 920,
      "test_91": 921,
      "server_99": 922,
      "backup_13": 923,
      "backup_86": 924,
      "user_40": 925,
      "config_43": 926,
      "user_22": 927,
      "user_29": 928,
      "backup_68": 929,
      "draft_67": 930,
      "test_61": 931,
      "config_64": 932,
      "server_76": 933,
      "config_73": 934,
      "data_77": 935,
      "final_47": 936,
      "final_27": 937,
      "server_29": 938,
      "user_50": 939,
      "config_81": 940,
      "draft_10": 941,
      "app_69": 942,
      "user_30": 943,
      "user_33": 944,
      "config_67": 945,
      "test_20": 946,
      "draft_52": 947,
      "backup_34": 948,
      "user_60": 949,
      "user_61": 950,
      "user_55": 951,
      "user_82": 952,
      "data_90": 953,
      "data_99": 954,
      "app_95": 955,
      "backup_91": 956,
      "app_10": 957,
      "user_44": 958,
      "backup_24": 959,
      "draft_30": 960,
      "app_44": 961,
      "final_56": 962,
      "config_78": 963,
      "app_57": 964,
      "draft_89": 965,
      "final_93": 966,
      "final_96": 967,
      "config_99": 968,
      "data_12": 969,
      "app_90": 970,
      "server_85": 971,
      "backup_21": 972,
      "data_27": 973,
      "draft_20": 974,
      "user_25": 975,
      "data_55": 976,
      "app_48": 977,
      "server_36": 978,
      "server_48": 979,
      "final_58": 980,
      "app_56": 981,
      "backup_32": 982,
      "data_71": 983,
      "final_44": 984,
      "final_21": 985,
      "server_20": 986,
      "config_89": 987,
      "test_98": 988,
      "test_17": 989,
      "data_88": 990,
      "user_98": 991,
      "data_15": 992,
      "data_19": 993,
      "app_94": 994,
      "data_10": 995,
      "final_92": 996,
      "draft_65": 997,
      "server_39": 998,
      "test_55": 999,
      "app_50": 1000,
      "final_34": 1001,
      "data_36": 1002,
      "draft_70": 1003,
      "final_23": 1004,
      "server_18": 1005,
      "test_96": 1006,
      "draft_15": 1007,
      "backup_19": 1008,
      "backup_85": 1009,
      "backup_98": 1010,
      "app_80": 1011,
      "backup_62": 1012,
      "user_79": 1013,
      "test_42": 1014,
      "draft_69": 1015,
      "user_38": 1016,
      "config_65": 1017,
      "app_21": 1018,
      "app_26": 1019,
      "server_70": 1020,
      "test_57": 1021,
      "server_61": 1022,
      "server_63": 1023,
      "draft_77": 1024,
      "server_90": 1025,
      "backup_83": 1026,
      "app_97": 1027,
      "data_80": 1028,
      "user_41": 1029,
      "draft_42": 1030,
      "app_73": 1031,
      "data_64": 1032,
      "test_69": 1033,
      "backup_70": 1034,
      "test_74": 1035,
      "config_61": 1036,
      "config_62": 1037,
      "app_23": 1038,
      "app_28": 1039,
      "test_27": 1040,
      "server_64": 1041,
      "backup_35": 1042,
      "data_39": 1043,
      "server_17": 1044,
      "final_16": 1045,
      "final_77": 1046,
      "app_49": 1047,
      "user_75": 1048,
      "server_47": 1049,
      "backup_56": 1050,
      "app_59": 1051,
      "final_39": 1052,
      "data_73": 1053,
      "user_15": 1054,
      "test_12": 1055,
      "app_88": 1056,
      "app_96": 1057,
      "backup_97": 1058,
      "data_21": 1059,
      "backup_42": 1060,
      "test_49": 1061,
      "app_71": 1062,
      "data_67": 1063,
      "backup_78": 1064,
      "server_46": 1065,
      "test_33": 1066,
      "user_69": 1067,
      "final_20": 1068,
      "data_82": 1069,
      "backup_14": 1070,
      "backup_84": 1071,
      "app_63": 1072,
      "app_39": 1073,
      "config_48": 1074,
      "draft_37": 1075,
      "config_77": 1076,
      "config_22": 1077,
      "server_67": 1078,
      "backup_31": 1079,
      "final_36": 1080,
      "final_42": 1081,
      "final_43": 1082,
      "user_14": 1083,
      "server_12": 1084,
      "config_12": 1085,
      "data_13": 1086,
      "final_84": 1087,
      "config_92": 1088,
      "final_79": 1089,
      "final_60": 1090,
      "final_64": 1091,
      "config_44": 1092,
      "data_60": 1093,
      "final_57": 1094,
      "test_23": 1095,
      "test_56": 1096,
      "config_35": 1097,
      "data_30": 1098,
      "config_86": 1099,
      "app_86": 1100,
      "data_83": 1101,
      "final_11": 1102,
      "config_90": 1103,
      "config_93": 1104,
      "server_88": 1105,
      "app_37": 1106,
      "backup_46": 1107,
      "test_26": 1108,
      "config_75": 1109,
      "server_69": 1110,
      "config_34": 1111,
      "final_32": 1112,
      "server_24": 1113,
      "config_15": 1114,
      "draft_12": 1115,
      "app_89": 1116,
      "draft_94": 1117,
      "data_89": 1118,
      "backup_11": 1119,
      "server_86": 1120,
      "final_82": 1121,
      "user_10": 1122,
      "backup_72": 1123,
      "test_78": 1124,
      "server_44": 1125,
      "test_21": 1126,
      "backup_58": 1127,
      "test_51": 1128,
      "backup_33": 1129,
      "final_45": 1130,
      "server_23": 1131,
      "draft_97": 1132,
      "final_14": 1133,
      "server_94": 1134,
      "server_82": 1135,
      "backup_23": 1136,
      "user_21": 1137,
      "data_53": 1138,
      "backup_48": 1139,
      "server_51": 1140,
      "user_39": 1141,
      "server_45": 1142,
      "test_58": 1143,
      "config_74": 1144,
      "draft_78": 1145,
      "app_98": 1146,
      "final_71": 1147,
      "draft_32": 1148,
      "draft_39": 1149,
      "app_47": 1150,
      "data_63": 1151,
      "config_69": 1152,
      "backup_37": 1153,
      "user_64": 1154,
      "config_87": 1155,
      "app_82": 1156,
      "backup_29": 1157,
      "draft_48": 1158,
      "server_54": 1159,
      "test_63": 1160,
      "draft_57": 1161,
      "data_38": 1162,
      "draft_73": 1163,
      "draft_79": 1164,
      "user_54": 1165,
      "test_94": 1166,
      "test_18": 1167,
      "final_89": 1168,
      "user_23": 1169,
      "data_54": 1170,
      "app_74": 1171,
      "backup_76": 1172,
      "app_24": 1173,
      "server_77": 1174,
      "config_36": 1175,
      "draft_86": 1176,
      "user_52": 1177,
      "config_13": 1178,
      "user_85": 1179,
      "draft_17": 1180,
      "final_12": 1181,
      "data_16": 1182,
      "data_57": 1183,
      "test_43": 1184,
      "backup_71": 1185,
      "test_76": 1186,
      "server_21": 1187,
      "test_93": 1188,
      "server_87": 1189,
      "test_73": 1190,
      "final_25": 1191,
      "server_14": 1192,
      "final_19": 1193,
      "backup_88": 1194,
      "config_52": 1195,
      "user_24": 1196,
      "data_43": 1197,
      "data_49": 1198,
      "app_70": 1199,
      "server_37": 1200,
      "backup_53": 1201,
      "data_70": 1202,
      "final_94": 1203,
      "backup_81": 1204,
      "draft_47": 1205,
      "data_20": 1206,
      "data_40": 1207,
      "data_58": 1208,
      "test_36": 1209,
      "backup_50": 1210,
      "config_25": 1211,
      "final_41": 1212,
      "user_66": 1213,
      "final_76": 1214,
      "server_25": 1215,
      "user_59": 1216,
      "user_96": 1217,
      "config_98": 1218,
      "backup_93": 1219,
      "draft_43": 1220,
      "test_72": 1221,
      "final_52": 1222,
      "final_55": 1223,
      "config_21": 1224,
      "test_15": 1225,
      "final_85": 1226,
      "backup_65": 1227,
      "draft_93": 1228,
      "user_65": 1229,
      "user_84": 1230,
      "config_91": 1231,
      "final_88": 1232,
      "backup_95": 1233,
      "backup_60": 1234,
      "user_67": 1235,
      "config_30": 1236,
      "final_22": 1237,
      "app_83": 1238,
      "user_91": 1239,
      "server_83": 1240,
      "final_81": 1241,
      "server_79": 1242,
      "final_29": 1243,
      "data_94": 1244,
      "draft_98": 1245,
      "backup_12": 1246,
      "config_37": 1247,
      "app_52": 1248,
      "app_17": 1249,
      "server_26": 1250,
      "final_31": 1251,
      "draft_13": 1252,
      "backup_49": 1253,
      "app_77": 1254,
      "user_32": 1255,
      "draft_53": 1256,
      "draft_76": 1257,
      "user_58": 1258,
      "user_76": 1259,
      "draft_64": 1260,
      "config_85": 1261,
      "test_37": 1262,
      "final_46": 1263,
      "server_30": 1264,
      "config_70": 1265,
      "final_30": 1266,
      "draft_28": 1267,
      "data_72": 1268,
      "data_74": 1269,
      "test_83": 1270,
      "test_32": 1271,
      "data_31": 1272,
      "backup_99": 1273
    },
    "merges": [
      [
        "t",
        "e"
      ],
      [
        "i",
        "s"
      ],
      [
        "t",
        "h"
      ],
      [
        "o",
        "n"
      ],
      [
        "n",
        "d"
      ],
      [
        "<",
        "/"
      ],
      [
        "n",
        "t"
      ],
      [
        "V",
        "E"
      ],
      [
        "te",
        "s"
      ],
      [
        "o",
        "f"
      ],
      [
        "m",
        "e"
      ],
      [
        "i",
        "c"
      ],
      [
        "l",
        "e"
      ],
      [
        "E",
        "R"
      ],
      [
        "th",
        "is"
      ],
      [
        "th",
        "e"
      ],
      [
        "A",
        "C"
      ],
      [
        "B",
        "S"
      ],
      [
        "H",
        "I"
      ],
      [
        "N",
        "K"
      ],
      [
        "O",
        "BS"
      ],
      [
        "T",
        "HI"
      ],
      [
        "i",
        "le"
      ],
      [
        "ER",
        "VE"
      ],
      [
        "AC",
        "T"
      ],
      [
        "OBS",
        "ERVE"
      ],
      [
        "THI",
        "NK"
      ],
      [
        "C",
        "on"
      ],
      [
        "n",
        "v"
      ],
      [
        "te",
        "nt"
      ],
      [
        "Con",
        "tent"
      ],
      [
        "d",
        "o"
      ],
      [
        "i",
        "n"
      ],
      [
        "l",
        "o"
      ],
      [
        "lo",
        "g"
      ],
      [
        "a",
        "nd"
      ],
      [
        "tes",
        "t"
      ],
      [
        "e",
        "r"
      ],
      [
        "do",
        "c"
      ],
      [
        "te",
        "m"
      ],
      [
        "x",
        "t"
      ],
      [
        "l",
        "s"
      ],
      [
        "h",
        "e"
      ],
      [
        "q",
        "u"
      ],
      [
        "ic",
        "k"
      ],
      [
        "qu",
        "ick"
      ],
      [
        "s",
        "y"
      ],
      [
        "s",
        "tem"
      ],
      [
        "sy",
        "stem"
      ],
      [
        "i",
        "r"
      ],
      [
        "log",
        "s"
      ],
      [
        "d",
        "i"
      ],
      [
        "me",
        "di"
      ],
      [
        "medi",
        "a"
      ],
      [
        "doc",
        "s"
      ],
      [
        "r",
        "c"
      ],
      [
        "s",
        "rc"
      ],
      [
        "me",
        "nt"
      ],
      [
        "'",
        "."
      ],
      [
        "<",
        "|"
      ],
      [
        "E",
        "nv"
      ],
      [
        "F",
        "ile"
      ],
      [
        "[",
        "/"
      ],
      [
        "]",
        "."
      ],
      [
        "_",
        "ls"
      ],
      [
        "e",
        "x"
      ],
      [
        "e",
        "nd"
      ],
      [
        "f",
        "ile"
      ],
      [
        "|",
        ">"
      ],
      [
        "te",
        "xt"
      ],
      [
        "of",
        "text"
      ],
      [
        "Env",
        "_ls"
      ],
      [
        "end",
        "oftext"
      ],
      [
        "t",
        "a"
      ],
      [
        "o",
        "l"
      ],
      [
        "c",
        "a"
      ],
      [
        ".",
        "."
      ],
      [
        "s",
        "t"
      ],
      [
        "a",
        "tes"
      ],
      [
        "d",
        "er"
      ],
      [
        "e",
        "nv"
      ],
      [
        "f",
        "ol"
      ],
      [
        "i",
        "nd"
      ],
      [
        "is",
        "t"
      ],
      [
        "on",
        "ment"
      ],
      [
        "ic",
        "ates"
      ],
      [
        "ir",
        "onment"
      ],
      [
        "ex",
        "ist"
      ],
      [
        "env",
        "ironment"
      ],
      [
        "fol",
        "der"
      ],
      [
        "ind",
        "icates"
      ],
      [
        "a",
        "ta"
      ],
      [
        "d",
        "ata"
      ],
      [
        "n",
        "o"
      ],
      [
        "c",
        "k"
      ],
      [
        "g",
        "e"
      ],
      [
        "I",
        "t"
      ],
      [
        "no",
        "t"
      ],
      [
        "a",
        "r"
      ],
      [
        "b",
        "a"
      ],
      [
        "in",
        "g"
      ],
      [
        "e",
        "s"
      ],
      [
        "r",
        "e"
      ],
      [
        "d",
        "e"
      ],
      [
        "c",
        "he"
      ],
      [
        "ca",
        "che"
      ],
      [
        "e",
        "l"
      ],
      [
        "c",
        "on"
      ],
      [
        "i",
        "g"
      ],
      [
        "C",
        "he"
      ],
      [
        "D",
        "I"
      ],
      [
        "K",
        "DI"
      ],
      [
        "M",
        "KDI"
      ],
      [
        "a",
        "te"
      ],
      [
        "b",
        "el"
      ],
      [
        "c",
        "re"
      ],
      [
        "f",
        "ir"
      ],
      [
        "g",
        "s"
      ],
      [
        "m",
        "u"
      ],
      [
        "on",
        "gs"
      ],
      [
        "do",
        "es"
      ],
      [
        "..",
        "."
      ],
      [
        "ck",
        "ing"
      ],
      [
        "Che",
        "cking"
      ],
      [
        "MKDI",
        "R"
      ],
      [
        "bel",
        "ongs"
      ],
      [
        "cre",
        "ate"
      ],
      [
        "fir",
        "st"
      ],
      [
        "mu",
        "st"
      ],
      [
        "M",
        "O"
      ],
      [
        "T",
        "he"
      ],
      [
        "T",
        "ar"
      ],
      [
        "i",
        "t"
      ],
      [
        "m",
        "o"
      ],
      [
        "v",
        "e"
      ],
      [
        "ca",
        "n"
      ],
      [
        "exist",
        "s"
      ],
      [
        "ge",
        "t"
      ],
      [
        "MO",
        "VE"
      ],
      [
        "Tar",
        "get"
      ],
      [
        "mo",
        "ve"
      ],
      [
        "p",
        "_"
      ],
      [
        "s",
        "er"
      ],
      [
        "m",
        "p"
      ],
      [
        "i",
        "on"
      ],
      [
        "ba",
        "ck"
      ],
      [
        "m",
        "a"
      ],
      [
        "t",
        "xt"
      ],
      [
        "c",
        "o"
      ],
      [
        "e",
        "e"
      ],
      [
        "h",
        "a"
      ],
      [
        "u",
        "n"
      ],
      [
        "back",
        "u"
      ],
      [
        "r",
        "a"
      ],
      [
        "t",
        "mp"
      ],
      [
        "i",
        "ma"
      ],
      [
        "ima",
        "ge"
      ],
      [
        "u",
        "ment"
      ],
      [
        "doc",
        "ument"
      ],
      [
        "co",
        "de"
      ],
      [
        "D",
        "E"
      ],
      [
        "E",
        "T"
      ],
      [
        "L",
        "ET"
      ],
      [
        "T",
        "h"
      ],
      [
        "a",
        "ls"
      ],
      [
        "j",
        "un"
      ],
      [
        "n",
        "s"
      ],
      [
        "n",
        "ee"
      ],
      [
        "n",
        "als"
      ],
      [
        "s",
        "ig"
      ],
      [
        "te",
        "ns"
      ],
      [
        "in",
        "s"
      ],
      [
        "ex",
        "tens"
      ],
      [
        "ta",
        "ins"
      ],
      [
        "de",
        "d"
      ],
      [
        "con",
        "tains"
      ],
      [
        "ha",
        "s"
      ],
      [
        "DE",
        "LET"
      ],
      [
        "Th",
        "is"
      ],
      [
        "jun",
        "k"
      ],
      [
        "nee",
        "ded"
      ],
      [
        "sig",
        "nals"
      ],
      [
        "extens",
        "ion"
      ],
      [
        "DELET",
        "E"
      ],
      [
        "ba",
        "k"
      ],
      [
        "a",
        "p"
      ],
      [
        "ap",
        "p_"
      ],
      [
        "d",
        "ra"
      ],
      [
        "f",
        "t"
      ],
      [
        "dra",
        "ft"
      ],
      [
        "draft",
        "_"
      ],
      [
        "test",
        "_"
      ],
      [
        "u",
        "ser"
      ],
      [
        "user",
        "_"
      ],
      [
        "f",
        "ig"
      ],
      [
        "con",
        "fig"
      ],
      [
        "config",
        "_"
      ],
      [
        "data",
        "_"
      ],
      [
        "backu",
        "p_"
      ],
      [
        "v",
        "er"
      ],
      [
        "ser",
        "ver"
      ],
      [
        "server",
        "_"
      ],
      [
        "a",
        "l"
      ],
      [
        "f",
        "in"
      ],
      [
        "al",
        "_"
      ],
      [
        "fin",
        "al_"
      ],
      [
        "n",
        "g"
      ],
      [
        "p",
        "ng"
      ],
      [
        "j",
        "p"
      ],
      [
        "jp",
        "g"
      ],
      [
        "d",
        "f"
      ],
      [
        "p",
        "df"
      ],
      [
        "p",
        "y"
      ],
      [
        "m",
        "d"
      ],
      [
        "t",
        "ion"
      ],
      [
        "(",
        ")"
      ],
      [
        "j",
        "s"
      ],
      [
        "p",
        "te"
      ],
      [
        "h",
        "t"
      ],
      [
        "m",
        "l"
      ],
      [
        "ht",
        "ml"
      ],
      [
        "9",
        "2"
      ],
      [
        "8",
        "0"
      ],
      [
        "1",
        "0"
      ],
      [
        "M",
        "ee"
      ],
      [
        "t",
        "ing"
      ],
      [
        "no",
        "tes"
      ],
      [
        "Mee",
        "ting"
      ],
      [
        "P",
        "i"
      ],
      [
        "e",
        "ls"
      ],
      [
        "x",
        "els"
      ],
      [
        "Pi",
        "xels"
      ],
      [
        "D",
        "ata"
      ],
      [
        "E",
        "X"
      ],
      [
        "I",
        "F"
      ],
      [
        "EX",
        "IF"
      ],
      [
        "0",
        "x"
      ],
      [
        "1",
        "92"
      ],
      [
        "R",
        "es"
      ],
      [
        "u",
        "tion"
      ],
      [
        "ol",
        "ution"
      ],
      [
        "10",
        "80"
      ],
      [
        "0x",
        "1080"
      ],
      [
        "192",
        "0x1080"
      ],
      [
        "Res",
        "olution"
      ],
      [
        "de",
        "f"
      ],
      [
        "ma",
        "in"
      ],
      [
        "()",
        ":"
      ],
      [
        "S",
        "u"
      ],
      [
        "m",
        "m"
      ],
      [
        "ar",
        "y"
      ],
      [
        "Su",
        "mm"
      ],
      [
        "Summ",
        "ary"
      ],
      [
        "o",
        "le"
      ],
      [
        "s",
        "ole"
      ],
      [
        "con",
        "sole"
      ],
      [
        "d",
        "u"
      ],
      [
        "du",
        "mp"
      ],
      [
        "C",
        "ha"
      ],
      [
        "pte",
        "r"
      ],
      [
        "Cha",
        "pter"
      ],
      [
        "i",
        "mp"
      ],
      [
        "o",
        "r"
      ],
      [
        "o",
        "s"
      ],
      [
        "imp",
        "or"
      ],
      [
        "impor",
        "t"
      ],
      [
        "no",
        "re"
      ],
      [
        "ig",
        "nore"
      ],
      [
        "G",
        "B"
      ],
      [
        "R",
        "GB"
      ],
      [
        "D",
        "e"
      ],
      [
        "a",
        "m"
      ],
      [
        "te",
        "am"
      ],
      [
        "De",
        "ar"
      ],
      [
        "c",
        "tion"
      ],
      [
        "f",
        "un"
      ],
      [
        "fun",
        "ction"
      ],
      [
        "r",
        "r"
      ],
      [
        "u",
        "pte"
      ],
      [
        "co",
        "rr"
      ],
      [
        "backu",
        "p"
      ],
      [
        "upte",
        "d"
      ],
      [
        "corr",
        "upted"
      ],
      [
        "tem",
        "p"
      ],
      [
        "O",
        "R"
      ],
      [
        "R",
        "OR"
      ],
      [
        "ER",
        "ROR"
      ],
      [
        "i",
        "me"
      ],
      [
        "o",
        "u"
      ],
      [
        "t",
        "ime"
      ],
      [
        "ou",
        "t"
      ],
      [
        "time",
        "out"
      ],
      [
        "a",
        "n"
      ],
      [
        "k",
        "er"
      ],
      [
        "n",
        "el"
      ],
      [
        "p",
        "an"
      ],
      [
        "ker",
        "nel"
      ],
      [
        "pan",
        "ic"
      ],
      [
        "T",
        "ra"
      ],
      [
        "c",
        "e"
      ],
      [
        "Tra",
        "ce"
      ],
      [
        "Trace",
        "back"
      ],
      [
        "A",
        "R"
      ],
      [
        "W",
        "AR"
      ],
      [
        "WAR",
        "N"
      ],
      [
        "user_",
        "4"
      ],
      [
        "app_",
        "6"
      ],
      [
        "backup_",
        "2"
      ],
      [
        "config_",
        "5"
      ],
      [
        "final_",
        "7"
      ],
      [
        "app_",
        "3"
      ],
      [
        "draft_",
        "4"
      ],
      [
        "data_",
        "2"
      ],
      [
        "final_",
        "6"
      ],
      [
        "draft_",
        "2"
      ],
      [
        "config_",
        "4"
      ],
      [
        "user_",
        "2"
      ],
      [
        "data_",
        "4"
      ],
      [
        "data_",
        "5"
      ],
      [
        "draft_",
        "3"
      ],
      [
        "backup_",
        "4"
      ],
      [
        "app_",
        "4"
      ],
      [
        "backup_",
        "6"
      ],
      [
        "server_",
        "5"
      ],
      [
        "user_",
        "7"
      ],
      [
        "test_",
        "4"
      ],
      [
        "draft_",
        "6"
      ],
      [
        "app_",
        "7"
      ],
      [
        "data_",
        "6"
      ],
      [
        "test_",
        "6"
      ],
      [
        "user_",
        "3"
      ],
      [
        "server_",
        "3"
      ],
      [
        "backup_",
        "7"
      ],
      [
        "test_",
        "7"
      ],
      [
        "server_",
        "4"
      ],
      [
        "final_",
        "5"
      ],
      [
        "config_",
        "6"
      ],
      [
        "app_",
        "2"
      ],
      [
        "server_",
        "7"
      ],
      [
        "test_",
        "3"
      ],
      [
        "test_",
        "2"
      ],
      [
        "backup_",
        "5"
      ],
      [
        "test_",
        "5"
      ],
      [
        "config_",
        "7"
      ],
      [
        "config_",
        "2"
      ],
      [
        "draft_",
        "5"
      ],
      [
        "server_",
        "6"
      ],
      [
        "config_",
        "3"
      ],
      [
        "app_",
        "5"
      ],
      [
        "backup_",
        "3"
      ],
      [
        "final_",
        "3"
      ],
      [
        "data_",
        "7"
      ],
      [
        "final_",
        "4"
      ],
      [
        "data_",
        "3"
      ],
      [
        "draft_",
        "7"
      ],
      [
        "user_",
        "6"
      ],
      [
        "final_",
        "2"
      ],
      [
        "app_",
        "1"
      ],
      [
        "user_",
        "1"
      ],
      [
        "server_",
        "2"
      ],
      [
        "draft_",
        "8"
      ],
      [
        "user_",
        "5"
      ],
      [
        "server_",
        "1"
      ],
      [
        "config_",
        "8"
      ],
      [
        "config_",
        "1"
      ],
      [
        "test_",
        "8"
      ],
      [
        "test_",
        "9"
      ],
      [
        "user_",
        "8"
      ],
      [
        "test_",
        "1"
      ],
      [
        "data_",
        "9"
      ],
      [
        "draft_",
        "1"
      ],
      [
        "app_",
        "8"
      ],
      [
        "draft_",
        "9"
      ],
      [
        "data_",
        "8"
      ],
      [
        "final_",
        "9"
      ],
      [
        "user_",
        "9"
      ],
      [
        "final_",
        "1"
      ],
      [
        "config_",
        "9"
      ],
      [
        "data_",
        "1"
      ],
      [
        "server_",
        "9"
      ],
      [
        "backup_",
        "1"
      ],
      [
        "backup_",
        "8"
      ],
      [
        "app_",
        "9"
      ],
      [
        "server_",
        "8"
      ],
      [
        "final_",
        "8"
      ],
      [
        "backup_",
        "9"
      ],
      [
        "app_7",
        "8"
      ],
      [
        "config_7",
        "1"
      ],
      [
        "draft_9",
        "5"
      ],
      [
        "user_2",
        "8"
      ],
      [
        "server_3",
        "1"
      ],
      [
        "test_1",
        "3"
      ],
      [
        "config_8",
        "2"
      ],
      [
        "config_8",
        "3"
      ],
      [
        "user_3",
        "5"
      ],
      [
        "user_8",
        "7"
      ],
      [
        "final_8",
        "6"
      ],
      [
        "final_7",
        "5"
      ],
      [
        "backup_4",
        "0"
      ],
      [
        "draft_9",
        "9"
      ],
      [
        "user_2",
        "0"
      ],
      [
        "data_2",
        "8"
      ],
      [
        "draft_8",
        "2"
      ],
      [
        "user_8",
        "3"
      ],
      [
        "app_4",
        "1"
      ],
      [
        "config_9",
        "7"
      ],
      [
        "data_5",
        "9"
      ],
      [
        "user_7",
        "3"
      ],
      [
        "server_1",
        "1"
      ],
      [
        "data_9",
        "8"
      ],
      [
        "final_1",
        "8"
      ],
      [
        "test_",
        "92"
      ],
      [
        "app_6",
        "7"
      ],
      [
        "draft_4",
        "6"
      ],
      [
        "draft_2",
        "6"
      ],
      [
        "backup_6",
        "6"
      ],
      [
        "app_8",
        "1"
      ],
      [
        "final_7",
        "3"
      ],
      [
        "data_4",
        "6"
      ],
      [
        "app_1",
        "8"
      ],
      [
        "test_9",
        "0"
      ],
      [
        "draft_1",
        "4"
      ],
      [
        "user_4",
        "3"
      ],
      [
        "app_6",
        "4"
      ],
      [
        "draft_3",
        "4"
      ],
      [
        "server_4",
        "2"
      ],
      [
        "app_2",
        "9"
      ],
      [
        "test_9",
        "5"
      ],
      [
        "final_",
        "80"
      ],
      [
        "user_4",
        "8"
      ],
      [
        "user_4",
        "9"
      ],
      [
        "backup_2",
        "6"
      ],
      [
        "user_7",
        "4"
      ],
      [
        "test_7",
        "1"
      ],
      [
        "test_3",
        "5"
      ],
      [
        "app_1",
        "2"
      ],
      [
        "data_8",
        "1"
      ],
      [
        "final_6",
        "7"
      ],
      [
        "draft_2",
        "1"
      ],
      [
        "data_5",
        "2"
      ],
      [
        "backup_7",
        "3"
      ],
      [
        "user_1",
        "9"
      ],
      [
        "test_8",
        "6"
      ],
      [
        "user_8",
        "6"
      ],
      [
        "server_8",
        "4"
      ],
      [
        "backup_2",
        "5"
      ],
      [
        "user_7",
        "0"
      ],
      [
        "server_4",
        "0"
      ],
      [
        "test_5",
        "3"
      ],
      [
        "test_8",
        "9"
      ],
      [
        "draft_1",
        "8"
      ],
      [
        "app_8",
        "4"
      ],
      [
        "config_",
        "10"
      ],
      [
        "backup_2",
        "8"
      ],
      [
        "config_5",
        "8"
      ],
      [
        "data_4",
        "5"
      ],
      [
        "test_4",
        "1"
      ],
      [
        "server_4",
        "3"
      ],
      [
        "test_3",
        "8"
      ],
      [
        "config_3",
        "2"
      ],
      [
        "user_1",
        "6"
      ],
      [
        "config_5",
        "4"
      ],
      [
        "user_2",
        "6"
      ],
      [
        "data_6",
        "2"
      ],
      [
        "config_6",
        "8"
      ],
      [
        "user_",
        "92"
      ],
      [
        "backup_",
        "10"
      ],
      [
        "backup_2",
        "2"
      ],
      [
        "final_7",
        "2"
      ],
      [
        "app_3",
        "6"
      ],
      [
        "user_2",
        "7"
      ],
      [
        "draft_3",
        "5"
      ],
      [
        "test_7",
        "9"
      ],
      [
        "backup_5",
        "1"
      ],
      [
        "backup_9",
        "6"
      ],
      [
        "final_6",
        "5"
      ],
      [
        "data_4",
        "2"
      ],
      [
        "data_5",
        "1"
      ],
      [
        "data_5",
        "6"
      ],
      [
        "backup_4",
        "5"
      ],
      [
        "backup_5",
        "2"
      ],
      [
        "app_5",
        "5"
      ],
      [
        "final_2",
        "6"
      ],
      [
        "app_1",
        "9"
      ],
      [
        "draft_8",
        "5"
      ],
      [
        "server_1",
        "6"
      ],
      [
        "draft_1",
        "6"
      ],
      [
        "backup_8",
        "2"
      ],
      [
        "user_4",
        "5"
      ],
      [
        "app_3",
        "0"
      ],
      [
        "draft_4",
        "4"
      ],
      [
        "final_5",
        "0"
      ],
      [
        "config_3",
        "1"
      ],
      [
        "final_3",
        "8"
      ],
      [
        "app_1",
        "3"
      ],
      [
        "server_2",
        "7"
      ],
      [
        "config_1",
        "8"
      ],
      [
        "final_9",
        "9"
      ],
      [
        "user_9",
        "5"
      ],
      [
        "backup_1",
        "5"
      ],
      [
        "app_9",
        "1"
      ],
      [
        "app_3",
        "1"
      ],
      [
        "draft_4",
        "9"
      ],
      [
        "draft_2",
        "9"
      ],
      [
        "config_4",
        "5"
      ],
      [
        "config_4",
        "6"
      ],
      [
        "server_5",
        "8"
      ],
      [
        "test_4",
        "6"
      ],
      [
        "app_7",
        "2"
      ],
      [
        "server_3",
        "3"
      ],
      [
        "config_2",
        "8"
      ],
      [
        "app_1",
        "1"
      ],
      [
        "user_1",
        "7"
      ],
      [
        "server_1",
        "5"
      ],
      [
        "test_1",
        "6"
      ],
      [
        "backup_1",
        "8"
      ],
      [
        "app_6",
        "6"
      ],
      [
        "draft_4",
        "0"
      ],
      [
        "test_4",
        "5"
      ],
      [
        "test_6",
        "7"
      ],
      [
        "config_6",
        "6"
      ],
      [
        "app_2",
        "7"
      ],
      [
        "test_2",
        "5"
      ],
      [
        "draft_5",
        "5"
      ],
      [
        "data_7",
        "6"
      ],
      [
        "draft_8",
        "3"
      ],
      [
        "draft_9",
        "6"
      ],
      [
        "data_1",
        "7"
      ],
      [
        "server_9",
        "3"
      ],
      [
        "server_",
        "92"
      ],
      [
        "user_4",
        "2"
      ],
      [
        "draft_4",
        "1"
      ],
      [
        "test_3",
        "9"
      ],
      [
        "final_3",
        "5"
      ],
      [
        "server_",
        "80"
      ],
      [
        "backup_2",
        "7"
      ],
      [
        "app_3",
        "3"
      ],
      [
        "data_4",
        "7"
      ],
      [
        "backup_6",
        "4"
      ],
      [
        "server_5",
        "9"
      ],
      [
        "test_4",
        "4"
      ],
      [
        "app_5",
        "4"
      ],
      [
        "final_3",
        "7"
      ],
      [
        "data_3",
        "7"
      ],
      [
        "user_1",
        "3"
      ],
      [
        "config_8",
        "4"
      ],
      [
        "data_9",
        "1"
      ],
      [
        "data_9",
        "3"
      ],
      [
        "user_9",
        "0"
      ],
      [
        "draft_2",
        "4"
      ],
      [
        "server_5",
        "3"
      ],
      [
        "test_4",
        "8"
      ],
      [
        "user_3",
        "6"
      ],
      [
        "user_3",
        "7"
      ],
      [
        "server_4",
        "9"
      ],
      [
        "user_1",
        "8"
      ],
      [
        "final_1",
        "3"
      ],
      [
        "final_",
        "10"
      ],
      [
        "user_4",
        "6"
      ],
      [
        "app_6",
        "8"
      ],
      [
        "app_3",
        "8"
      ],
      [
        "draft_4",
        "5"
      ],
      [
        "server_5",
        "0"
      ],
      [
        "backup_7",
        "9"
      ],
      [
        "test_7",
        "5"
      ],
      [
        "final_5",
        "1"
      ],
      [
        "server_7",
        "4"
      ],
      [
        "test_5",
        "2"
      ],
      [
        "server_2",
        "2"
      ],
      [
        "draft_8",
        "8"
      ],
      [
        "test_8",
        "2"
      ],
      [
        "final_9",
        "0"
      ],
      [
        "app_",
        "92"
      ],
      [
        "draft_",
        "92"
      ],
      [
        "draft_2",
        "7"
      ],
      [
        "config_4",
        "0"
      ],
      [
        "config_4",
        "2"
      ],
      [
        "backup_4",
        "3"
      ],
      [
        "user_7",
        "2"
      ],
      [
        "draft_6",
        "0"
      ],
      [
        "data_6",
        "9"
      ],
      [
        "test_7",
        "7"
      ],
      [
        "app_2",
        "0"
      ],
      [
        "test_3",
        "4"
      ],
      [
        "config_7",
        "2"
      ],
      [
        "user_6",
        "2"
      ],
      [
        "draft_",
        "80"
      ],
      [
        "test_",
        "10"
      ],
      [
        "user_",
        "80"
      ],
      [
        "final_7",
        "0"
      ],
      [
        "draft_3",
        "3"
      ],
      [
        "backup_6",
        "1"
      ],
      [
        "backup_6",
        "7"
      ],
      [
        "draft_6",
        "2"
      ],
      [
        "data_6",
        "1"
      ],
      [
        "data_6",
        "8"
      ],
      [
        "backup_7",
        "7"
      ],
      [
        "backup_5",
        "4"
      ],
      [
        "draft_5",
        "8"
      ],
      [
        "server_6",
        "8"
      ],
      [
        "draft_7",
        "5"
      ],
      [
        "user_1",
        "2"
      ],
      [
        "config_1",
        "1"
      ],
      [
        "test_8",
        "4"
      ],
      [
        "data_9",
        "7"
      ],
      [
        "app_8",
        "7"
      ],
      [
        "data_8",
        "6"
      ],
      [
        "backup_9",
        "4"
      ],
      [
        "user_4",
        "7"
      ],
      [
        "app_3",
        "5"
      ],
      [
        "data_2",
        "3"
      ],
      [
        "final_6",
        "6"
      ],
      [
        "config_4",
        "7"
      ],
      [
        "app_4",
        "3"
      ],
      [
        "test_4",
        "7"
      ],
      [
        "draft_6",
        "6"
      ],
      [
        "data_7",
        "9"
      ],
      [
        "data_3",
        "2"
      ],
      [
        "config_1",
        "9"
      ],
      [
        "test_9",
        "7"
      ],
      [
        "test_1",
        "9"
      ],
      [
        "app_8",
        "5"
      ],
      [
        "final_9",
        "5"
      ],
      [
        "backup_2",
        "0"
      ],
      [
        "config_5",
        "9"
      ],
      [
        "final_7",
        "8"
      ],
      [
        "data_2",
        "6"
      ],
      [
        "draft_3",
        "8"
      ],
      [
        "server_5",
        "5"
      ],
      [
        "draft_6",
        "1"
      ],
      [
        "server_7",
        "5"
      ],
      [
        "draft_5",
        "1"
      ],
      [
        "draft_5",
        "6"
      ],
      [
        "draft_7",
        "2"
      ],
      [
        "final_2",
        "8"
      ],
      [
        "app_1",
        "4"
      ],
      [
        "user_5",
        "6"
      ],
      [
        "draft_1",
        "1"
      ],
      [
        "draft_9",
        "1"
      ],
      [
        "data_8",
        "7"
      ],
      [
        "final_1",
        "7"
      ],
      [
        "config_9",
        "4"
      ],
      [
        "backup_1",
        "7"
      ],
      [
        "backup_8",
        "9"
      ],
      [
        "server_8",
        "9"
      ],
      [
        "config_5",
        "0"
      ],
      [
        "data_2",
        "4"
      ],
      [
        "data_2",
        "5"
      ],
      [
        "data_4",
        "8"
      ],
      [
        "user_7",
        "1"
      ],
      [
        "final_5",
        "4"
      ],
      [
        "test_3",
        "0"
      ],
      [
        "test_2",
        "8"
      ],
      [
        "config_3",
        "3"
      ],
      [
        "draft_7",
        "1"
      ],
      [
        "server_1",
        "9"
      ],
      [
        "config_1",
        "4"
      ],
      [
        "user_9",
        "3"
      ],
      [
        "user_9",
        "7"
      ],
      [
        "data_1",
        "1"
      ],
      [
        "app_6",
        "5"
      ],
      [
        "backup_4",
        "4"
      ],
      [
        "app_7",
        "5"
      ],
      [
        "server_3",
        "4"
      ],
      [
        "server_7",
        "2"
      ],
      [
        "app_5",
        "8"
      ],
      [
        "data_7",
        "8"
      ],
      [
        "final_4",
        "0"
      ],
      [
        "data_3",
        "3"
      ],
      [
        "config_1",
        "6"
      ],
      [
        "test_8",
        "1"
      ],
      [
        "user_9",
        "4"
      ],
      [
        "backup_9",
        "0"
      ],
      [
        "final_7",
        "4"
      ],
      [
        "app_3",
        "4"
      ],
      [
        "app_4",
        "0"
      ],
      [
        "app_7",
        "6"
      ],
      [
        "test_6",
        "2"
      ],
      [
        "server_3",
        "8"
      ],
      [
        "backup_7",
        "4"
      ],
      [
        "final_5",
        "3"
      ],
      [
        "config_2",
        "3"
      ],
      [
        "config_2",
        "6"
      ],
      [
        "config_3",
        "9"
      ],
      [
        "user_6",
        "3"
      ],
      [
        "draft_8",
        "1"
      ],
      [
        "server_1",
        "3"
      ],
      [
        "test_8",
        "7"
      ],
      [
        "test_9",
        "9"
      ],
      [
        "draft_9",
        "0"
      ],
      [
        "config_9",
        "6"
      ],
      [
        "backup_1",
        "6"
      ],
      [
        "config_5",
        "5"
      ],
      [
        "final_6",
        "9"
      ],
      [
        "config_4",
        "9"
      ],
      [
        "draft_3",
        "6"
      ],
      [
        "app_4",
        "2"
      ],
      [
        "test_6",
        "0"
      ],
      [
        "server_3",
        "2"
      ],
      [
        "server_7",
        "3"
      ],
      [
        "config_2",
        "0"
      ],
      [
        "config_3",
        "8"
      ],
      [
        "final_3",
        "3"
      ],
      [
        "data_3",
        "4"
      ],
      [
        "app_1",
        "5"
      ],
      [
        "draft_8",
        "4"
      ],
      [
        "test_1",
        "4"
      ],
      [
        "final_9",
        "7"
      ],
      [
        "data_1",
        "8"
      ],
      [
        "server_9",
        "1"
      ],
      [
        "app_9",
        "9"
      ],
      [
        "final_8",
        "7"
      ],
      [
        "config_5",
        "6"
      ],
      [
        "data_2",
        "9"
      ],
      [
        "final_6",
        "3"
      ],
      [
        "test_4",
        "0"
      ],
      [
        "draft_6",
        "8"
      ],
      [
        "test_6",
        "4"
      ],
      [
        "test_7",
        "0"
      ],
      [
        "config_6",
        "0"
      ],
      [
        "app_2",
        "2"
      ],
      [
        "app_2",
        "5"
      ],
      [
        "test_5",
        "0"
      ],
      [
        "draft_5",
        "9"
      ],
      [
        "data_7",
        "5"
      ],
      [
        "draft_7",
        "4"
      ],
      [
        "config_8",
        "8"
      ],
      [
        "final_1",
        "5"
      ],
      [
        "server_9",
        "5"
      ],
      [
        "backup_8",
        "7"
      ],
      [
        "app_9",
        "3"
      ],
      [
        "server_8",
        "1"
      ],
      [
        "test_",
        "80"
      ],
      [
        "final_6",
        "1"
      ],
      [
        "data_4",
        "4"
      ],
      [
        "app_4",
        "6"
      ],
      [
        "backup_6",
        "9"
      ],
      [
        "app_7",
        "9"
      ],
      [
        "data_6",
        "5"
      ],
      [
        "test_6",
        "5"
      ],
      [
        "user_3",
        "4"
      ],
      [
        "server_4",
        "1"
      ],
      [
        "backup_5",
        "7"
      ],
      [
        "test_5",
        "9"
      ],
      [
        "config_7",
        "6"
      ],
      [
        "server_6",
        "6"
      ],
      [
        "backup_3",
        "9"
      ],
      [
        "user_1",
        "1"
      ],
      [
        "data_8",
        "5"
      ],
      [
        "final_9",
        "1"
      ],
      [
        "server_9",
        "8"
      ],
      [
        "data_",
        "92"
      ],
      [
        "backup_",
        "92"
      ],
      [
        "config_5",
        "7"
      ],
      [
        "app_3",
        "2"
      ],
      [
        "test_6",
        "6"
      ],
      [
        "final_5",
        "9"
      ],
      [
        "config_2",
        "9"
      ],
      [
        "draft_5",
        "4"
      ],
      [
        "backup_3",
        "0"
      ],
      [
        "backup_3",
        "6"
      ],
      [
        "final_4",
        "9"
      ],
      [
        "final_2",
        "4"
      ],
      [
        "test_8",
        "5"
      ],
      [
        "test_8",
        "8"
      ],
      [
        "user_8",
        "8"
      ],
      [
        "data_1",
        "4"
      ],
      [
        "server_",
        "10"
      ],
      [
        "final_6",
        "2"
      ],
      [
        "draft_3",
        "1"
      ],
      [
        "backup_4",
        "1"
      ],
      [
        "backup_4",
        "7"
      ],
      [
        "app_4",
        "5"
      ],
      [
        "user_7",
        "7"
      ],
      [
        "user_7",
        "8"
      ],
      [
        "data_6",
        "6"
      ],
      [
        "test_6",
        "8"
      ],
      [
        "user_3",
        "1"
      ],
      [
        "config_6",
        "3"
      ],
      [
        "server_6",
        "2"
      ],
      [
        "app_5",
        "1"
      ],
      [
        "user_6",
        "8"
      ],
      [
        "server_2",
        "8"
      ],
      [
        "draft_8",
        "7"
      ],
      [
        "final_9",
        "8"
      ],
      [
        "backup_",
        "80"
      ],
      [
        "app_6",
        "1"
      ],
      [
        "app_6",
        "2"
      ],
      [
        "config_5",
        "1"
      ],
      [
        "config_5",
        "3"
      ],
      [
        "final_6",
        "8"
      ],
      [
        "draft_2",
        "3"
      ],
      [
        "config_4",
        "1"
      ],
      [
        "data_5",
        "0"
      ],
      [
        "server_5",
        "2"
      ],
      [
        "server_5",
        "6"
      ],
      [
        "server_3",
        "5"
      ],
      [
        "backup_7",
        "5"
      ],
      [
        "test_3",
        "1"
      ],
      [
        "test_2",
        "2"
      ],
      [
        "test_2",
        "9"
      ],
      [
        "test_5",
        "4"
      ],
      [
        "backup_3",
        "8"
      ],
      [
        "user_5",
        "1"
      ],
      [
        "user_5",
        "7"
      ],
      [
        "user_8",
        "1"
      ],
      [
        "data_9",
        "6"
      ],
      [
        "draft_1",
        "9"
      ],
      [
        "user_9",
        "9"
      ],
      [
        "config_",
        "80"
      ],
      [
        "app_6",
        "0"
      ],
      [
        "draft_2",
        "2"
      ],
      [
        "draft_2",
        "5"
      ],
      [
        "server_5",
        "7"
      ],
      [
        "server_7",
        "1"
      ],
      [
        "test_2",
        "4"
      ],
      [
        "backup_5",
        "5"
      ],
      [
        "backup_5",
        "9"
      ],
      [
        "config_2",
        "4"
      ],
      [
        "config_2",
        "7"
      ],
      [
        "draft_5",
        "0"
      ],
      [
        "server_6",
        "0"
      ],
      [
        "app_5",
        "3"
      ],
      [
        "data_3",
        "5"
      ],
      [
        "user_5",
        "3"
      ],
      [
        "user_8",
        "9"
      ],
      [
        "test_1",
        "1"
      ],
      [
        "data_9",
        "5"
      ],
      [
        "data_8",
        "4"
      ],
      [
        "config_9",
        "5"
      ],
      [
        "server_9",
        "6"
      ],
      [
        "server_9",
        "7"
      ],
      [
        "final_8",
        "3"
      ],
      [
        "data_2",
        "2"
      ],
      [
        "data_4",
        "1"
      ],
      [
        "backup_6",
        "3"
      ],
      [
        "draft_6",
        "3"
      ],
      [
        "server_7",
        "8"
      ],
      [
        "config_7",
        "9"
      ],
      [
        "server_6",
        "5"
      ],
      [
        "final_4",
        "8"
      ],
      [
        "app_1",
        "6"
      ],
      [
        "config_1",
        "7"
      ],
      [
        "test_9",
        "1"
      ],
      [
        "server_9",
        "9"
      ],
      [
        "backup_1",
        "3"
      ],
      [
        "backup_8",
        "6"
      ],
      [
        "user_4",
        "0"
      ],
      [
        "config_4",
        "3"
      ],
      [
        "user_2",
        "2"
      ],
      [
        "user_2",
        "9"
      ],
      [
        "backup_6",
        "8"
      ],
      [
        "draft_6",
        "7"
      ],
      [
        "test_6",
        "1"
      ],
      [
        "config_6",
        "4"
      ],
      [
        "server_7",
        "6"
      ],
      [
        "config_7",
        "3"
      ],
      [
        "data_7",
        "7"
      ],
      [
        "final_4",
        "7"
      ],
      [
        "final_2",
        "7"
      ],
      [
        "server_2",
        "9"
      ],
      [
        "user_5",
        "0"
      ],
      [
        "config_8",
        "1"
      ],
      [
        "draft_",
        "10"
      ],
      [
        "app_6",
        "9"
      ],
      [
        "user_3",
        "0"
      ],
      [
        "user_3",
        "3"
      ],
      [
        "config_6",
        "7"
      ],
      [
        "test_2",
        "0"
      ],
      [
        "draft_5",
        "2"
      ],
      [
        "backup_3",
        "4"
      ],
      [
        "user_6",
        "0"
      ],
      [
        "user_6",
        "1"
      ],
      [
        "user_5",
        "5"
      ],
      [
        "user_8",
        "2"
      ],
      [
        "data_9",
        "0"
      ],
      [
        "data_9",
        "9"
      ],
      [
        "app_9",
        "5"
      ],
      [
        "backup_9",
        "1"
      ],
      [
        "app_",
        "10"
      ],
      [
        "user_4",
        "4"
      ],
      [
        "backup_2",
        "4"
      ],
      [
        "draft_3",
        "0"
      ],
      [
        "app_4",
        "4"
      ],
      [
        "final_5",
        "6"
      ],
      [
        "config_7",
        "8"
      ],
      [
        "app_5",
        "7"
      ],
      [
        "draft_8",
        "9"
      ],
      [
        "final_9",
        "3"
      ],
      [
        "final_9",
        "6"
      ],
      [
        "config_9",
        "9"
      ],
      [
        "data_1",
        "2"
      ],
      [
        "app_9",
        "0"
      ],
      [
        "server_8",
        "5"
      ],
      [
        "backup_2",
        "1"
      ],
      [
        "data_2",
        "7"
      ],
      [
        "draft_2",
        "0"
      ],
      [
        "user_2",
        "5"
      ],
      [
        "data_5",
        "5"
      ],
      [
        "app_4",
        "8"
      ],
      [
        "server_3",
        "6"
      ],
      [
        "server_4",
        "8"
      ],
      [
        "final_5",
        "8"
      ],
      [
        "app_5",
        "6"
      ],
      [
        "backup_3",
        "2"
      ],
      [
        "data_7",
        "1"
      ],
      [
        "final_4",
        "4"
      ],
      [
        "final_2",
        "1"
      ],
      [
        "server_2",
        "0"
      ],
      [
        "config_8",
        "9"
      ],
      [
        "test_9",
        "8"
      ],
      [
        "test_1",
        "7"
      ],
      [
        "data_8",
        "8"
      ],
      [
        "user_9",
        "8"
      ],
      [
        "data_1",
        "5"
      ],
      [
        "data_1",
        "9"
      ],
      [
        "app_9",
        "4"
      ],
      [
        "data_",
        "10"
      ],
      [
        "final_",
        "92"
      ],
      [
        "draft_6",
        "5"
      ],
      [
        "server_3",
        "9"
      ],
      [
        "test_5",
        "5"
      ],
      [
        "app_5",
        "0"
      ],
      [
        "final_3",
        "4"
      ],
      [
        "data_3",
        "6"
      ],
      [
        "draft_7",
        "0"
      ],
      [
        "final_2",
        "3"
      ],
      [
        "server_1",
        "8"
      ],
      [
        "test_9",
        "6"
      ],
      [
        "draft_1",
        "5"
      ],
      [
        "backup_1",
        "9"
      ],
      [
        "backup_8",
        "5"
      ],
      [
        "backup_9",
        "8"
      ],
      [
        "app_",
        "80"
      ],
      [
        "backup_6",
        "2"
      ],
      [
        "user_7",
        "9"
      ],
      [
        "test_4",
        "2"
      ],
      [
        "draft_6",
        "9"
      ],
      [
        "user_3",
        "8"
      ],
      [
        "config_6",
        "5"
      ],
      [
        "app_2",
        "1"
      ],
      [
        "app_2",
        "6"
      ],
      [
        "server_7",
        "0"
      ],
      [
        "test_5",
        "7"
      ],
      [
        "server_6",
        "1"
      ],
      [
        "server_6",
        "3"
      ],
      [
        "draft_7",
        "7"
      ],
      [
        "server_9",
        "0"
      ],
      [
        "backup_8",
        "3"
      ],
      [
        "app_9",
        "7"
      ],
      [
        "data_",
        "80"
      ],
      [
        "user_4",
        "1"
      ],
      [
        "draft_4",
        "2"
      ],
      [
        "app_7",
        "3"
      ],
      [
        "data_6",
        "4"
      ],
      [
        "test_6",
        "9"
      ],
      [
        "backup_7",
        "0"
      ],
      [
        "test_7",
        "4"
      ],
      [
        "config_6",
        "1"
      ],
      [
        "config_6",
        "2"
      ],
      [
        "app_2",
        "3"
      ],
      [
        "app_2",
        "8"
      ],
      [
        "test_2",
        "7"
      ],
      [
        "server_6",
        "4"
      ],
      [
        "backup_3",
        "5"
      ],
      [
        "data_3",
        "9"
      ],
      [
        "server_1",
        "7"
      ],
      [
        "final_1",
        "6"
      ],
      [
        "final_7",
        "7"
      ],
      [
        "app_4",
        "9"
      ],
      [
        "user_7",
        "5"
      ],
      [
        "server_4",
        "7"
      ],
      [
        "backup_5",
        "6"
      ],
      [
        "app_5",
        "9"
      ],
      [
        "final_3",
        "9"
      ],
      [
        "data_7",
        "3"
      ],
      [
        "user_1",
        "5"
      ],
      [
        "test_1",
        "2"
      ],
      [
        "app_8",
        "8"
      ],
      [
        "app_9",
        "6"
      ],
      [
        "backup_9",
        "7"
      ],
      [
        "data_2",
        "1"
      ],
      [
        "backup_4",
        "2"
      ],
      [
        "test_4",
        "9"
      ],
      [
        "app_7",
        "1"
      ],
      [
        "data_6",
        "7"
      ],
      [
        "backup_7",
        "8"
      ],
      [
        "server_4",
        "6"
      ],
      [
        "test_3",
        "3"
      ],
      [
        "user_6",
        "9"
      ],
      [
        "final_2",
        "0"
      ],
      [
        "data_8",
        "2"
      ],
      [
        "backup_1",
        "4"
      ],
      [
        "backup_8",
        "4"
      ],
      [
        "app_6",
        "3"
      ],
      [
        "app_3",
        "9"
      ],
      [
        "config_4",
        "8"
      ],
      [
        "draft_3",
        "7"
      ],
      [
        "config_7",
        "7"
      ],
      [
        "config_2",
        "2"
      ],
      [
        "server_6",
        "7"
      ],
      [
        "backup_3",
        "1"
      ],
      [
        "final_3",
        "6"
      ],
      [
        "final_4",
        "2"
      ],
      [
        "final_4",
        "3"
      ],
      [
        "user_1",
        "4"
      ],
      [
        "server_1",
        "2"
      ],
      [
        "config_1",
        "2"
      ],
      [
        "data_1",
        "3"
      ],
      [
        "final_8",
        "4"
      ],
      [
        "config_",
        "92"
      ],
      [
        "final_7",
        "9"
      ],
      [
        "final_6",
        "0"
      ],
      [
        "final_6",
        "4"
      ],
      [
        "config_4",
        "4"
      ],
      [
        "data_6",
        "0"
      ],
      [
        "final_5",
        "7"
      ],
      [
        "test_2",
        "3"
      ],
      [
        "test_5",
        "6"
      ],
      [
        "config_3",
        "5"
      ],
      [
        "data_3",
        "0"
      ],
      [
        "config_8",
        "6"
      ],
      [
        "app_8",
        "6"
      ],
      [
        "data_8",
        "3"
      ],
      [
        "final_1",
        "1"
      ],
      [
        "config_9",
        "0"
      ],
      [
        "config_9",
        "3"
      ],
      [
        "server_8",
        "8"
      ],
      [
        "app_3",
        "7"
      ],
      [
        "backup_4",
        "6"
      ],
      [
        "test_2",
        "6"
      ],
      [
        "config_7",
        "5"
      ],
      [
        "server_6",
        "9"
      ],
      [
        "config_3",
        "4"
      ],
      [
        "final_3",
        "2"
      ],
      [
        "server_2",
        "4"
      ],
      [
        "config_1",
        "5"
      ],
      [
        "draft_1",
        "2"
      ],
      [
        "app_8",
        "9"
      ],
      [
        "draft_9",
        "4"
      ],
      [
        "data_8",
        "9"
      ],
      [
        "backup_1",
        "1"
      ],
      [
        "server_8",
        "6"
      ],
      [
        "final_8",
        "2"
      ],
      [
        "user_",
        "10"
      ],
      [
        "backup_7",
        "2"
      ],
      [
        "test_7",
        "8"
      ],
      [
        "server_4",
        "4"
      ],
      [
        "test_2",
        "1"
      ],
      [
        "backup_5",
        "8"
      ],
      [
        "test_5",
        "1"
      ],
      [
        "backup_3",
        "3"
      ],
      [
        "final_4",
        "5"
      ],
      [
        "server_2",
        "3"
      ],
      [
        "draft_9",
        "7"
      ],
      [
        "final_1",
        "4"
      ],
      [
        "server_9",
        "4"
      ],
      [
        "server_8",
        "2"
      ],
      [
        "backup_2",
        "3"
      ],
      [
        "user_2",
        "1"
      ],
      [
        "data_5",
        "3"
      ],
      [
        "backup_4",
        "8"
      ],
      [
        "server_5",
        "1"
      ],
      [
        "user_3",
        "9"
      ],
      [
        "server_4",
        "5"
      ],
      [
        "test_5",
        "8"
      ],
      [
        "config_7",
        "4"
      ],
      [
        "draft_7",
        "8"
      ],
      [
        "app_9",
        "8"
      ],
      [
        "final_7",
        "1"
      ],
      [
        "draft_3",
        "2"
      ],
      [
        "draft_3",
        "9"
      ],
      [
        "app_4",
        "7"
      ],
      [
        "data_6",
        "3"
      ],
      [
        "config_6",
        "9"
      ],
      [
        "backup_3",
        "7"
      ],
      [
        "user_6",
        "4"
      ],
      [
        "config_8",
        "7"
      ],
      [
        "app_8",
        "2"
      ],
      [
        "backup_2",
        "9"
      ],
      [
        "draft_4",
        "8"
      ],
      [
        "server_5",
        "4"
      ],
      [
        "test_6",
        "3"
      ],
      [
        "draft_5",
        "7"
      ],
      [
        "data_3",
        "8"
      ],
      [
        "draft_7",
        "3"
      ],
      [
        "draft_7",
        "9"
      ],
      [
        "user_5",
        "4"
      ],
      [
        "test_9",
        "4"
      ],
      [
        "test_1",
        "8"
      ],
      [
        "final_8",
        "9"
      ],
      [
        "user_2",
        "3"
      ],
      [
        "data_5",
        "4"
      ],
      [
        "app_7",
        "4"
      ],
      [
        "backup_7",
        "6"
      ],
      [
        "app_2",
        "4"
      ],
      [
        "server_7",
        "7"
      ],
      [
        "config_3",
        "6"
      ],
      [
        "draft_8",
        "6"
      ],
      [
        "user_5",
        "2"
      ],
      [
        "config_1",
        "3"
      ],
      [
        "user_8",
        "5"
      ],
      [
        "draft_1",
        "7"
      ],
      [
        "final_1",
        "2"
      ],
      [
        "data_1",
        "6"
      ],
      [
        "data_5",
        "7"
      ],
      [
        "test_4",
        "3"
      ],
      [
        "backup_7",
        "1"
      ],
      [
        "test_7",
        "6"
      ],
      [
        "server_2",
        "1"
      ],
      [
        "test_9",
        "3"
      ],
      [
        "server_8",
        "7"
      ],
      [
        "test_7",
        "3"
      ],
      [
        "final_2",
        "5"
      ],
      [
        "server_1",
        "4"
      ],
      [
        "final_1",
        "9"
      ],
      [
        "backup_8",
        "8"
      ],
      [
        "config_5",
        "2"
      ],
      [
        "user_2",
        "4"
      ],
      [
        "data_4",
        "3"
      ],
      [
        "data_4",
        "9"
      ],
      [
        "app_7",
        "0"
      ],
      [
        "server_3",
        "7"
      ],
      [
        "backup_5",
        "3"
      ],
      [
        "data_7",
        "0"
      ],
      [
        "final_9",
        "4"
      ],
      [
        "backup_8",
        "1"
      ],
      [
        "draft_4",
        "7"
      ],
      [
        "data_2",
        "0"
      ],
      [
        "data_4",
        "0"
      ],
      [
        "data_5",
        "8"
      ],
      [
        "test_3",
        "6"
      ],
      [
        "backup_5",
        "0"
      ],
      [
        "config_2",
        "5"
      ],
      [
        "final_4",
        "1"
      ],
      [
        "user_6",
        "6"
      ],
      [
        "final_7",
        "6"
      ],
      [
        "server_2",
        "5"
      ],
      [
        "user_5",
        "9"
      ],
      [
        "user_9",
        "6"
      ],
      [
        "config_9",
        "8"
      ],
      [
        "backup_9",
        "3"
      ],
      [
        "draft_4",
        "3"
      ],
      [
        "test_7",
        "2"
      ],
      [
        "final_5",
        "2"
      ],
      [
        "final_5",
        "5"
      ],
      [
        "config_2",
        "1"
      ],
      [
        "test_1",
        "5"
      ],
      [
        "final_8",
        "5"
      ],
      [
        "backup_6",
        "5"
      ],
      [
        "draft_9",
        "3"
      ],
      [
        "user_6",
        "5"
      ],
      [
        "user_8",
        "4"
      ],
      [
        "config_9",
        "1"
      ],
      [
        "final_8",
        "8"
      ],
      [
        "backup_9",
        "5"
      ],
      [
        "backup_6",
        "0"
      ],
      [
        "user_6",
        "7"
      ],
      [
        "config_3",
        "0"
      ],
      [
        "final_2",
        "2"
      ],
      [
        "app_8",
        "3"
      ],
      [
        "user_9",
        "1"
      ],
      [
        "server_8",
        "3"
      ],
      [
        "final_8",
        "1"
      ],
      [
        "server_7",
        "9"
      ],
      [
        "final_2",
        "9"
      ],
      [
        "data_9",
        "4"
      ],
      [
        "draft_9",
        "8"
      ],
      [
        "backup_1",
        "2"
      ],
      [
        "config_3",
        "7"
      ],
      [
        "app_5",
        "2"
      ],
      [
        "app_1",
        "7"
      ],
      [
        "server_2",
        "6"
      ],
      [
        "final_3",
        "1"
      ],
      [
        "draft_1",
        "3"
      ],
      [
        "backup_4",
        "9"
      ],
      [
        "app_7",
        "7"
      ],
      [
        "user_3",
        "2"
      ],
      [
        "draft_5",
        "3"
      ],
      [
        "draft_7",
        "6"
      ],
      [
        "user_5",
        "8"
      ],
      [
        "user_7",
        "6"
      ],
      [
        "draft_6",
        "4"
      ],
      [
        "config_8",
        "5"
      ],
      [
        "test_3",
        "7"
      ],
      [
        "final_4",
        "6"
      ],
      [
        "server_3",
        "0"
      ],
      [
        "config_7",
        "0"
      ],
      [
        "final_3",
        "0"
      ],
      [
        "draft_2",
        "8"
      ],
      [
        "data_7",
        "2"
      ],
      [
        "data_7",
        "4"
      ],
      [
        "test_8",
        "3"
      ],
      [
        "test_3",
        "2"
      ],
      [
        "data_3",
        "1"
      ],
      [
        "backup_9",
        "9"
      ]
    ]
  }
}